//
// Created by Kevin Williams on 4/16/22.
//

#include "src/model.h"

// Keep model aligned to 8 bytes to guarantee aligned 64-bit accesses.
alignas(8) const unsigned char g_model[] = {
        0x1c, 0x00, 0x00, 0x00, 0x54, 0x46, 0x4c, 0x33, 0x00, 0x00, 0x12, 0x00,
        0x1c, 0x00, 0x04, 0x00, 0x08, 0x00, 0x0c, 0x00, 0x10, 0x00, 0x14, 0x00,
        0x00, 0x00, 0x18, 0x00, 0x12, 0x00, 0x00, 0x00, 0x03, 0x00, 0x00, 0x00,
        0xc8, 0x11, 0x00, 0x00, 0x18, 0x00, 0x00, 0x00, 0x1c, 0x00, 0x00, 0x00,
        0x2c, 0x00, 0x00, 0x00, 0x04, 0x00, 0x00, 0x00, 0x01, 0x00, 0x00, 0x00,
        0xc4, 0x00, 0x00, 0x00, 0x01, 0x00, 0x00, 0x00, 0xec, 0x00, 0x00, 0x00,
        0x0f, 0x00, 0x00, 0x00, 0x54, 0x4f, 0x43, 0x4f, 0x20, 0x43, 0x6f, 0x6e,
        0x76, 0x65, 0x72, 0x74, 0x65, 0x64, 0x2e, 0x00, 0x0d, 0x00, 0x00, 0x00,
        0x90, 0x00, 0x00, 0x00, 0x84, 0x00, 0x00, 0x00, 0x70, 0x00, 0x00, 0x00,
        0x5c, 0x00, 0x00, 0x00, 0x50, 0x00, 0x00, 0x00, 0x48, 0x00, 0x00, 0x00,
        0x40, 0x00, 0x00, 0x00, 0x38, 0x00, 0x00, 0x00, 0x2c, 0x00, 0x00, 0x00,
        0x20, 0x00, 0x00, 0x00, 0x18, 0x00, 0x00, 0x00, 0x10, 0x00, 0x00, 0x00,
        0x04, 0x00, 0x00, 0x00, 0xb2, 0xff, 0xff, 0xff, 0x5c, 0x00, 0x00, 0x00,
        0xb8, 0xee, 0xff, 0xff, 0xbc, 0xee, 0xff, 0xff, 0xc2, 0xff, 0xff, 0xff,
        0xbc, 0x01, 0x00, 0x00, 0xca, 0xff, 0xff, 0xff, 0x38, 0x02, 0x00, 0x00,
        0xd0, 0xee, 0xff, 0xff, 0xd4, 0xee, 0xff, 0xff, 0xd8, 0xee, 0xff, 0xff,
        0xde, 0xff, 0xff, 0xff, 0xd0, 0x03, 0x00, 0x00, 0xf6, 0xff, 0xff, 0xff,
        0xd8, 0x08, 0x00, 0x00, 0x00, 0x00, 0x06, 0x00, 0x0a, 0x00, 0x04, 0x00,
        0x06, 0x00, 0x00, 0x00, 0xd0, 0x0a, 0x00, 0x00, 0x00, 0x00, 0x06, 0x00,
        0x08, 0x00, 0x04, 0x00, 0x06, 0x00, 0x00, 0x00, 0xe0, 0x0f, 0x00, 0x00,
        0x0c, 0xef, 0xff, 0xff, 0x06, 0x00, 0x00, 0x00, 0x31, 0x2e, 0x31, 0x34,
        0x2e, 0x30, 0x00, 0x00, 0x50, 0xff, 0xff, 0xff, 0x08, 0x00, 0x00, 0x00,
        0x0c, 0x00, 0x00, 0x00, 0x13, 0x00, 0x00, 0x00, 0x6d, 0x69, 0x6e, 0x5f,
        0x72, 0x75, 0x6e, 0x74, 0x69, 0x6d, 0x65, 0x5f, 0x76, 0x65, 0x72, 0x73,
        0x69, 0x6f, 0x6e, 0x00, 0x0c, 0x00, 0x14, 0x00, 0x04, 0x00, 0x08, 0x00,
        0x0c, 0x00, 0x10, 0x00, 0x0c, 0x00, 0x00, 0x00, 0x20, 0x00, 0x00, 0x00,
        0x14, 0x00, 0x00, 0x00, 0x08, 0x00, 0x00, 0x00, 0x9c, 0x0f, 0x00, 0x00,
        0x01, 0x00, 0x00, 0x00, 0x00, 0x00, 0x00, 0x00, 0x01, 0x00, 0x00, 0x00,
        0x0a, 0x00, 0x00, 0x00, 0x0b, 0x00, 0x00, 0x00, 0x7c, 0x00, 0x00, 0x00,
        0x68, 0x02, 0x00, 0x00, 0x14, 0x01, 0x00, 0x00, 0xa4, 0x00, 0x00, 0x00,
        0x00, 0x02, 0x00, 0x00, 0xb4, 0x02, 0x00, 0x00, 0xd8, 0x07, 0x00, 0x00,
        0x9c, 0x01, 0x00, 0x00, 0xc0, 0x09, 0x00, 0x00, 0xf4, 0x0e, 0x00, 0x00,
        0x04, 0x00, 0x00, 0x00, 0x22, 0xf1, 0xff, 0xff, 0x1c, 0x00, 0x00, 0x00,
        0x0b, 0x00, 0x00, 0x00, 0x08, 0x00, 0x00, 0x00, 0x24, 0x00, 0x00, 0x00,
        0x07, 0x00, 0x00, 0x00, 0x69, 0x6e, 0x70, 0x75, 0x74, 0x5f, 0x31, 0x00,
        0x02, 0x00, 0x00, 0x00, 0x01, 0x00, 0x00, 0x00, 0x03, 0x00, 0x00, 0x00,
        0x08, 0x00, 0x0c, 0x00, 0x04, 0x00, 0x08, 0x00, 0x08, 0x00, 0x00, 0x00,
        0x10, 0x00, 0x00, 0x00, 0x04, 0x00, 0x00, 0x00, 0x01, 0x00, 0x00, 0x00,
        0x00, 0x00, 0x7f, 0x43, 0x01, 0x00, 0x00, 0x00, 0x00, 0x00, 0x00, 0x00,
        0x72, 0xf1, 0xff, 0xff, 0x20, 0x00, 0x00, 0x00, 0x0a, 0x00, 0x00, 0x00,
        0x08, 0x00, 0x00, 0x00, 0x20, 0x00, 0x00, 0x00, 0x08, 0x00, 0x00, 0x00,
        0x49, 0x64, 0x65, 0x6e, 0x74, 0x69, 0x74, 0x79, 0x00, 0x00, 0x00, 0x00,
        0x02, 0x00, 0x00, 0x00, 0x01, 0x00, 0x00, 0x00, 0x03, 0x00, 0x00, 0x00,
        0x20, 0xf0, 0xff, 0xff, 0xa6, 0xf1, 0xff, 0xff, 0x4c, 0x00, 0x00, 0x00,
        0x09, 0x00, 0x00, 0x00, 0x08, 0x00, 0x00, 0x00, 0x48, 0x00, 0x00, 0x00,
        0x34, 0x00, 0x00, 0x00, 0x53, 0x74, 0x61, 0x74, 0x65, 0x66, 0x75, 0x6c,
        0x50, 0x61, 0x72, 0x74, 0x69, 0x74, 0x69, 0x6f, 0x6e, 0x65, 0x64, 0x43,
        0x61, 0x6c, 0x6c, 0x2f, 0x73, 0x65, 0x71, 0x75, 0x65, 0x6e, 0x74, 0x69,
        0x61, 0x6c, 0x2f, 0x64, 0x65, 0x6e, 0x73, 0x65, 0x2f, 0x4d, 0x61, 0x74,
        0x4d, 0x75, 0x6c, 0x5f, 0x62, 0x69, 0x61, 0x73, 0x00, 0x00, 0x00, 0x00,
        0x01, 0x00, 0x00, 0x00, 0x03, 0x00, 0x00, 0x00, 0x7c, 0xf0, 0xff, 0xff,
        0x0c, 0x00, 0x00, 0x00, 0xbf, 0x28, 0xaa, 0xbe, 0xf3, 0x84, 0x2e, 0x3e,
        0xab, 0x8a, 0x3e, 0xbe, 0x12, 0xf2, 0xff, 0xff, 0x60, 0x00, 0x00, 0x00,
        0x08, 0x00, 0x00, 0x00, 0x08, 0x00, 0x00, 0x00, 0x60, 0x00, 0x00, 0x00,
        0x48, 0x00, 0x00, 0x00, 0x53, 0x74, 0x61, 0x74, 0x65, 0x66, 0x75, 0x6c,
        0x50, 0x61, 0x72, 0x74, 0x69, 0x74, 0x69, 0x6f, 0x6e, 0x65, 0x64, 0x43,
        0x61, 0x6c, 0x6c, 0x2f, 0x73, 0x65, 0x71, 0x75, 0x65, 0x6e, 0x74, 0x69,
        0x61, 0x6c, 0x2f, 0x64, 0x65, 0x6e, 0x73, 0x65, 0x2f, 0x4d, 0x61, 0x74,
        0x4d, 0x75, 0x6c, 0x2f, 0x52, 0x65, 0x61, 0x64, 0x56, 0x61, 0x72, 0x69,
        0x61, 0x62, 0x6c, 0x65, 0x4f, 0x70, 0x2f, 0x74, 0x72, 0x61, 0x6e, 0x73,
        0x70, 0x6f, 0x73, 0x65, 0x00, 0x00, 0x00, 0x00, 0x02, 0x00, 0x00, 0x00,
        0x03, 0x00, 0x00, 0x00, 0x03, 0x00, 0x00, 0x00, 0x00, 0xf1, 0xff, 0xff,
        0x24, 0x00, 0x00, 0x00, 0xe4, 0xf0, 0x61, 0x3c, 0xff, 0xe2, 0xb6, 0x3e,
        0xd8, 0x8f, 0xb9, 0xbc, 0xb3, 0xf8, 0x91, 0x3c, 0x45, 0xfa, 0xd3, 0x3c,
        0xad, 0x43, 0x03, 0x3e, 0x26, 0xa9, 0x85, 0x3e, 0xb7, 0x12, 0x78, 0xbd,
        0xed, 0xe0, 0x5a, 0xbc, 0xae, 0xf2, 0xff, 0xff, 0x44, 0x00, 0x00, 0x00,
        0x07, 0x00, 0x00, 0x00, 0x08, 0x00, 0x00, 0x00, 0x44, 0x00, 0x00, 0x00,
        0x2f, 0x00, 0x00, 0x00, 0x53, 0x74, 0x61, 0x74, 0x65, 0x66, 0x75, 0x6c,
        0x50, 0x61, 0x72, 0x74, 0x69, 0x74, 0x69, 0x6f, 0x6e, 0x65, 0x64, 0x43,
        0x61, 0x6c, 0x6c, 0x2f, 0x73, 0x65, 0x71, 0x75, 0x65, 0x6e, 0x74, 0x69,
        0x61, 0x6c, 0x2f, 0x64, 0x65, 0x6e, 0x73, 0x65, 0x5f, 0x31, 0x2f, 0x54,
        0x61, 0x6e, 0x68, 0x00, 0x02, 0x00, 0x00, 0x00, 0x01, 0x00, 0x00, 0x00,
        0x64, 0x00, 0x00, 0x00, 0x80, 0xf1, 0xff, 0xff, 0x06, 0xf3, 0xff, 0xff,
        0x48, 0x00, 0x00, 0x00, 0x06, 0x00, 0x00, 0x00, 0x08, 0x00, 0x00, 0x00,
        0x48, 0x00, 0x00, 0x00, 0x32, 0x00, 0x00, 0x00, 0x53, 0x74, 0x61, 0x74,
        0x65, 0x66, 0x75, 0x6c, 0x50, 0x61, 0x72, 0x74, 0x69, 0x74, 0x69, 0x6f,
        0x6e, 0x65, 0x64, 0x43, 0x61, 0x6c, 0x6c, 0x2f, 0x73, 0x65, 0x71, 0x75,
        0x65, 0x6e, 0x74, 0x69, 0x61, 0x6c, 0x2f, 0x64, 0x65, 0x6e, 0x73, 0x65,
        0x5f, 0x31, 0x2f, 0x42, 0x69, 0x61, 0x73, 0x41, 0x64, 0x64, 0x00, 0x00,
        0x02, 0x00, 0x00, 0x00, 0x01, 0x00, 0x00, 0x00, 0x64, 0x00, 0x00, 0x00,
        0xdc, 0xf1, 0xff, 0xff, 0x62, 0xf3, 0xff, 0xff, 0x48, 0x00, 0x00, 0x00,
        0x05, 0x00, 0x00, 0x00, 0x08, 0x00, 0x00, 0x00, 0x48, 0x00, 0x00, 0x00,
        0x30, 0x00, 0x00, 0x00, 0x53, 0x74, 0x61, 0x74, 0x65, 0x66, 0x75, 0x6c,
        0x50, 0x61, 0x72, 0x74, 0x69, 0x74, 0x69, 0x6f, 0x6e, 0x65, 0x64, 0x43,
        0x61, 0x6c, 0x6c, 0x2f, 0x73, 0x65, 0x71, 0x75, 0x65, 0x6e, 0x74, 0x69,
        0x61, 0x6c, 0x2f, 0x64, 0x65, 0x6e, 0x73, 0x65, 0x2f, 0x42, 0x69, 0x61,
        0x73, 0x41, 0x64, 0x64, 0x00, 0x00, 0x00, 0x00, 0x02, 0x00, 0x00, 0x00,
        0x01, 0x00, 0x00, 0x00, 0x03, 0x00, 0x00, 0x00, 0x38, 0xf2, 0xff, 0xff,
        0xbe, 0xf3, 0xff, 0xff, 0x60, 0x00, 0x00, 0x00, 0x04, 0x00, 0x00, 0x00,
        0x08, 0x00, 0x00, 0x00, 0x60, 0x00, 0x00, 0x00, 0x4a, 0x00, 0x00, 0x00,
        0x53, 0x74, 0x61, 0x74, 0x65, 0x66, 0x75, 0x6c, 0x50, 0x61, 0x72, 0x74,
        0x69, 0x74, 0x69, 0x6f, 0x6e, 0x65, 0x64, 0x43, 0x61, 0x6c, 0x6c, 0x2f,
        0x73, 0x65, 0x71, 0x75, 0x65, 0x6e, 0x74, 0x69, 0x61, 0x6c, 0x2f, 0x64,
        0x65, 0x6e, 0x73, 0x65, 0x5f, 0x31, 0x2f, 0x4d, 0x61, 0x74, 0x4d, 0x75,
        0x6c, 0x2f, 0x52, 0x65, 0x61, 0x64, 0x56, 0x61, 0x72, 0x69, 0x61, 0x62,
        0x6c, 0x65, 0x4f, 0x70, 0x2f, 0x74, 0x72, 0x61, 0x6e, 0x73, 0x70, 0x6f,
        0x73, 0x65, 0x00, 0x00, 0x02, 0x00, 0x00, 0x00, 0x64, 0x00, 0x00, 0x00,
        0x03, 0x00, 0x00, 0x00, 0xac, 0xf2, 0xff, 0xff, 0xb0, 0x04, 0x00, 0x00,
        0xf7, 0x96, 0x8a, 0x3f, 0x2e, 0xd6, 0xf6, 0x3d, 0x65, 0x9d, 0x06, 0xbf,
        0x5e, 0xd8, 0x9d, 0x3e, 0xa1, 0xf4, 0xe9, 0x3c, 0xb7, 0x7c, 0xc0, 0x3e,
        0x66, 0x17, 0x20, 0x40, 0x83, 0xf3, 0xf8, 0x3e, 0x44, 0x1d, 0x59, 0x3f,
        0x63, 0x9a, 0xc2, 0xbd, 0x1c, 0x27, 0xa2, 0x3d, 0x1f, 0xdc, 0xe3, 0xbd,
        0x45, 0xd8, 0x7f, 0x3f, 0xb8, 0xd6, 0xf1, 0x3e, 0x1b, 0x84, 0x43, 0x40,
        0xe8, 0x83, 0x0e, 0xba, 0x07, 0x74, 0x7c, 0x3a, 0xb7, 0x33, 0xc9, 0x3a,
        0x3a, 0x63, 0xeb, 0xb4, 0x89, 0xab, 0x83, 0xb6, 0x52, 0x3e, 0x1c, 0x37,
        0x6f, 0x00, 0x68, 0xbe, 0x9c, 0x1f, 0xb2, 0x3e, 0x3d, 0xa1, 0x51, 0xbe,
        0x60, 0x35, 0x8b, 0x3d, 0x6a, 0x90, 0xcb, 0x3e, 0x0a, 0xbd, 0xbb, 0x3d,
        0xc9, 0xff, 0xee, 0xbe, 0x30, 0xde, 0xce, 0xbc, 0xa9, 0xb8, 0xfe, 0x3e,
        0x5a, 0xdd, 0xdd, 0xbb, 0x9c, 0x8e, 0x07, 0xbd, 0x97, 0x74, 0x5a, 0xbe,
        0x5b, 0x3a, 0xf8, 0x3d, 0xa4, 0xaf, 0x59, 0x3e, 0xa5, 0xed, 0x19, 0x3e,
        0xba, 0xc6, 0xf3, 0x3f, 0xd2, 0x82, 0x82, 0x3e, 0xdd, 0x88, 0x07, 0xbf,
        0xc6, 0x38, 0x23, 0xbc, 0xa1, 0xd9, 0xfc, 0x3d, 0x1a, 0x1e, 0x0a, 0x3e,
        0x7f, 0x3e, 0x9c, 0x3b, 0x26, 0x90, 0x2b, 0xbd, 0xac, 0x8e, 0x04, 0xbe,
        0x20, 0xdf, 0x15, 0xbf, 0x47, 0xe1, 0x85, 0xbd, 0x4e, 0xb7, 0x61, 0x3e,
        0x64, 0x71, 0x64, 0xbc, 0xbe, 0x11, 0xf6, 0xbd, 0x04, 0x63, 0x94, 0xbe,
        0x7c, 0x73, 0x8a, 0xbd, 0x8e, 0x07, 0x73, 0x3d, 0x29, 0x00, 0x18, 0xbc,
        0x6b, 0xb8, 0x67, 0xbd, 0x2d, 0xbd, 0xd9, 0xbd, 0xb9, 0x50, 0x71, 0xbf,
        0x0e, 0xe0, 0x10, 0x3d, 0xd7, 0xec, 0x32, 0x3e, 0x51, 0x7e, 0x06, 0xbe,
        0x6a, 0xd0, 0x1a, 0x3c, 0x51, 0xc0, 0x3d, 0xbe, 0xcc, 0xa3, 0xc5, 0xbd,
        0xc0, 0xa1, 0x1c, 0x3e, 0x9c, 0x01, 0x0c, 0x3c, 0x94, 0x9f, 0x96, 0xbe,
        0xc7, 0x75, 0x46, 0x3e, 0x8f, 0xe3, 0x03, 0xbf, 0x44, 0x72, 0x44, 0x3e,
        0x63, 0x71, 0xce, 0x3d, 0xa6, 0xa7, 0x39, 0xbe, 0x60, 0xca, 0x6a, 0xbb,
        0x04, 0x7c, 0xb6, 0xbc, 0xb3, 0x3b, 0x69, 0xbe, 0x02, 0xa3, 0xda, 0x3d,
        0xbe, 0x23, 0x1f, 0xbe, 0x9a, 0xbe, 0x15, 0xbe, 0xa5, 0x7b, 0x47, 0xbe,
        0x69, 0x66, 0xe3, 0x3d, 0x86, 0x22, 0x88, 0xbe, 0x1a, 0x61, 0x9e, 0x3e,
        0x64, 0xd6, 0x81, 0x3d, 0x17, 0x21, 0x5a, 0x3d, 0xd0, 0xe7, 0xd3, 0x3e,
        0xc4, 0x32, 0x8e, 0x3f, 0xb7, 0xde, 0x47, 0x3e, 0xdd, 0x13, 0x5b, 0x3d,
        0x10, 0xdd, 0xbc, 0xba, 0x76, 0x9a, 0x91, 0xbe, 0x6e, 0xd9, 0x1c, 0xbc,
        0xa1, 0x04, 0xfb, 0xbc, 0xa0, 0xa7, 0x8f, 0x3e, 0xfa, 0xa8, 0x15, 0xbd,
        0xd2, 0x8c, 0x2b, 0xbe, 0xea, 0x7d, 0x35, 0x39, 0xf1, 0x50, 0x83, 0x3d,
        0x0e, 0x3a, 0x41, 0xbe, 0x4f, 0x31, 0x51, 0x3e, 0x03, 0x4f, 0xa1, 0xbe,
        0x35, 0x91, 0xa9, 0xbd, 0x54, 0x04, 0x4e, 0x3d, 0xd5, 0x07, 0x60, 0xbd,
        0xfa, 0xd2, 0xc7, 0x3d, 0xdf, 0xba, 0xca, 0xbe, 0xed, 0x39, 0x6a, 0x3e,
        0x1c, 0xe5, 0xd6, 0x3d, 0x52, 0xfa, 0x9f, 0x3e, 0x4a, 0x50, 0x04, 0xbd,
        0x86, 0xab, 0x16, 0xbe, 0xba, 0xe7, 0xea, 0x3e, 0xc5, 0x28, 0x18, 0xbe,
        0xf1, 0x36, 0x8b, 0xba, 0xd1, 0xab, 0x8b, 0xbe, 0xad, 0xa1, 0xbf, 0xbc,
        0x5d, 0x2f, 0x14, 0x40, 0x01, 0xa6, 0xc6, 0x3e, 0x41, 0x57, 0x6d, 0xbd,
        0xd0, 0xf0, 0xa1, 0xbd, 0x01, 0x9b, 0x22, 0xbd, 0x06, 0xc6, 0x26, 0xbd,
        0x96, 0x7d, 0x71, 0xbe, 0x9a, 0x7b, 0x44, 0x3e, 0xcc, 0x48, 0xa5, 0xbd,
        0x62, 0xf6, 0x89, 0x3e, 0xc1, 0x1a, 0x2f, 0x3e, 0xd1, 0x7b, 0xa9, 0x3e,
        0xd1, 0xaa, 0xe5, 0xbd, 0x82, 0xf6, 0x04, 0x3d, 0x2c, 0xf8, 0xf7, 0xbd,
        0x8b, 0xef, 0xdf, 0xbd, 0x09, 0x87, 0x8b, 0x3e, 0x41, 0x64, 0x0a, 0x3b,
        0x2e, 0xe7, 0xda, 0x3d, 0xe8, 0x68, 0xbe, 0x3e, 0xb6, 0xb1, 0x12, 0x3e,
        0x79, 0x23, 0xb4, 0xbc, 0x77, 0xd3, 0x96, 0x3c, 0xeb, 0xf6, 0xd5, 0xbc,
        0xc7, 0xf2, 0xcf, 0x39, 0xd6, 0x05, 0x45, 0xba, 0x2b, 0x04, 0x00, 0xba,
        0x5b, 0xec, 0xd3, 0xbc, 0x74, 0xf3, 0x9f, 0x3c, 0xbb, 0xfb, 0xe2, 0xbc,
        0x1a, 0x2f, 0x61, 0xbf, 0x9b, 0x07, 0xd5, 0xbe, 0x83, 0x9e, 0x2a, 0xc0,
        0x89, 0x10, 0x27, 0x36, 0x03, 0xa9, 0x28, 0x39, 0xe8, 0x9e, 0x54, 0x38,
        0xc4, 0xf5, 0xb9, 0xbd, 0x14, 0xa3, 0xad, 0xbb, 0x37, 0x79, 0xd0, 0xbd,
        0x24, 0xcf, 0xd0, 0xbc, 0x1f, 0x14, 0x99, 0x3c, 0xa4, 0xe0, 0xcd, 0xbc,
        0x6c, 0x1f, 0x46, 0x3d, 0x09, 0xfe, 0x5c, 0x3d, 0xb6, 0x7c, 0x5c, 0x3d,
        0x7f, 0x9f, 0x6b, 0x3f, 0x5e, 0xfd, 0x2e, 0x3e, 0x81, 0x82, 0x65, 0x3e,
        0x5c, 0xfb, 0x38, 0x3f, 0x15, 0x61, 0x93, 0x3d, 0xb9, 0x71, 0x08, 0xbf,
        0x0a, 0xa7, 0x6d, 0x3a, 0xee, 0xaf, 0x26, 0xba, 0x41, 0xfe, 0x33, 0xba,
        0xc2, 0x7f, 0xdd, 0xbb, 0x16, 0xbd, 0x85, 0x3e, 0x3a, 0x77, 0xe4, 0x3c,
        0x81, 0x4f, 0x03, 0x3d, 0x49, 0xa7, 0x2c, 0x3e, 0x7b, 0x01, 0x36, 0x3d,
        0x86, 0x90, 0x3d, 0x3d, 0xf3, 0x99, 0x50, 0xbe, 0xcb, 0x8b, 0x6c, 0x3d,
        0xea, 0xf9, 0xfb, 0xbe, 0x7e, 0x1a, 0x83, 0x3d, 0x1c, 0xa9, 0x20, 0xbf,
        0x41, 0x9c, 0xa6, 0xbd, 0x27, 0x60, 0x2d, 0xbe, 0x22, 0xc1, 0x19, 0x3d,
        0xd5, 0x8d, 0x3c, 0xbb, 0xb7, 0xd3, 0x32, 0xbd, 0xb9, 0xce, 0xf7, 0xbe,
        0x8a, 0x38, 0x1f, 0x3d, 0x45, 0x41, 0x22, 0xbe, 0xf6, 0xe4, 0x0f, 0x3e,
        0x9f, 0x8e, 0x85, 0x3e, 0x38, 0x02, 0x14, 0xbe, 0x95, 0xcb, 0xa2, 0x3e,
        0xf9, 0xa1, 0x61, 0xbe, 0xb2, 0x19, 0x48, 0xbc, 0xcc, 0xb7, 0x54, 0x3c,
        0xc3, 0xe3, 0x48, 0x3f, 0x10, 0x19, 0xdb, 0xbb, 0xac, 0x48, 0x5e, 0xbf,
        0x40, 0xfb, 0x02, 0x3d, 0xc8, 0xae, 0x3a, 0x3e, 0xe2, 0xa5, 0x5a, 0xbd,
        0xc6, 0x18, 0x1c, 0xbe, 0xdd, 0xb6, 0xe5, 0x3b, 0x86, 0x08, 0x09, 0x3f,
        0xe7, 0xc9, 0xd0, 0x3d, 0x40, 0x18, 0x24, 0xbe, 0x81, 0x79, 0xb4, 0xbd,
        0x9c, 0xf0, 0xd7, 0x3c, 0x97, 0x10, 0xa1, 0xbc, 0xdf, 0xfd, 0xdd, 0x3c,
        0x33, 0x84, 0xb8, 0x3c, 0x6c, 0x19, 0xb5, 0x3e, 0x86, 0x3b, 0x21, 0x3d,
        0x59, 0xce, 0x02, 0x3d, 0xb4, 0xc7, 0x03, 0xbc, 0xa1, 0x95, 0xef, 0x3d,
        0xb6, 0xf5, 0xdd, 0xbe, 0x06, 0xde, 0x8a, 0xbd, 0x1b, 0xbf, 0x4d, 0x3d,
        0x6c, 0x7b, 0x5a, 0xbe, 0x94, 0x13, 0x0c, 0x3c, 0x46, 0x0f, 0x8f, 0xbe,
        0xbe, 0xa4, 0xaa, 0x3e, 0x44, 0xa4, 0x83, 0x3d, 0xfb, 0x91, 0x6a, 0x3b,
        0x15, 0x78, 0xb6, 0xbf, 0xdb, 0xea, 0x3c, 0xbe, 0xbc, 0xee, 0x6a, 0xbf,
        0x16, 0xe3, 0x42, 0x3e, 0xb3, 0xd4, 0x13, 0x3e, 0xdf, 0xe3, 0x95, 0x3f,
        0x31, 0x5e, 0x80, 0x3e, 0xaa, 0xa8, 0xd1, 0xbb, 0x73, 0x9a, 0x79, 0x3e,
        0x2a, 0xb0, 0x67, 0x36, 0x97, 0xa8, 0xab, 0xb8, 0xf0, 0x22, 0xa0, 0x38,
        0x1d, 0x33, 0x41, 0xbe, 0xeb, 0x97, 0x10, 0x3e, 0x92, 0x77, 0x7b, 0xbe,
        0xee, 0x5d, 0x25, 0xbd, 0xa1, 0x23, 0xeb, 0x3c, 0x87, 0x91, 0xb8, 0x3e,
        0x9e, 0x19, 0xae, 0xbc, 0x96, 0xb2, 0xb7, 0x3d, 0x28, 0x31, 0xb4, 0x3d,
        0x31, 0x45, 0x0e, 0x3f, 0x18, 0x18, 0x81, 0x3d, 0x62, 0x2d, 0x53, 0xbe,
        0xba, 0x37, 0x61, 0xbf, 0x08, 0xb3, 0xff, 0xbd, 0xa0, 0x45, 0xd8, 0x3d,
        0x65, 0xe6, 0x92, 0x3e, 0x6b, 0x6c, 0x2a, 0x3e, 0x1d, 0x19, 0xc5, 0x3f,
        0xa3, 0x3d, 0xb5, 0x3c, 0xa2, 0x6a, 0xe4, 0xbc, 0x64, 0xf5, 0x81, 0xbe,
        0x88, 0x78, 0x0e, 0x3e, 0x98, 0xb4, 0x21, 0xbe, 0x57, 0x19, 0x53, 0x3d,
        0xcb, 0xab, 0xb6, 0xbe, 0x51, 0x27, 0x23, 0xbd, 0x47, 0x06, 0xa7, 0xbd,
        0x5a, 0xa7, 0x33, 0x40, 0x06, 0xb4, 0x0c, 0x3f, 0x6a, 0xcc, 0x76, 0x3f,
        0xd9, 0x25, 0xc4, 0x3f, 0x6a, 0x44, 0x13, 0x3e, 0xf1, 0x54, 0x5d, 0xbf,
        0x61, 0x7a, 0x0f, 0xbe, 0xb9, 0xee, 0x6b, 0xbd, 0x6a, 0xba, 0x0c, 0x3c,
        0x7f, 0xff, 0xed, 0xbe, 0x8b, 0x16, 0x30, 0xba, 0x09, 0x54, 0x92, 0x3b,
        0x78, 0xd9, 0x0b, 0x3e, 0x35, 0x9a, 0x70, 0x3e, 0x2d, 0x26, 0x39, 0x3e,
        0x6e, 0xb2, 0x5f, 0xbe, 0xcb, 0x1a, 0x21, 0xbe, 0xd1, 0x0d, 0x96, 0xbf,
        0xc0, 0xf5, 0x2b, 0xbe, 0x33, 0x89, 0x15, 0xbe, 0x27, 0x28, 0xa5, 0x3d,
        0x8a, 0xad, 0xd7, 0x3c, 0xb7, 0xb2, 0x96, 0xbc, 0xda, 0x7a, 0xd5, 0x3c,
        0xdd, 0x88, 0xb3, 0x39, 0x78, 0xc6, 0xfc, 0xb8, 0x49, 0x7d, 0x07, 0xb9,
        0x38, 0x74, 0x98, 0x3e, 0x64, 0x09, 0x3f, 0xbb, 0xa9, 0xae, 0x07, 0xbe,
        0xd6, 0xad, 0xbc, 0xbe, 0xe9, 0x3a, 0x12, 0xbe, 0x4f, 0x8c, 0x07, 0xbf,
        0xe4, 0xc6, 0xee, 0xbf, 0xf5, 0x3c, 0x88, 0xbe, 0x09, 0xd6, 0xd9, 0x3e,
        0xe6, 0xf8, 0xff, 0xff, 0x4c, 0x00, 0x00, 0x00, 0x03, 0x00, 0x00, 0x00,
        0x08, 0x00, 0x00, 0x00, 0x48, 0x00, 0x00, 0x00, 0x36, 0x00, 0x00, 0x00,
        0x53, 0x74, 0x61, 0x74, 0x65, 0x66, 0x75, 0x6c, 0x50, 0x61, 0x72, 0x74,
        0x69, 0x74, 0x69, 0x6f, 0x6e, 0x65, 0x64, 0x43, 0x61, 0x6c, 0x6c, 0x2f,
        0x73, 0x65, 0x71, 0x75, 0x65, 0x6e, 0x74, 0x69, 0x61, 0x6c, 0x2f, 0x64,
        0x65, 0x6e, 0x73, 0x65, 0x5f, 0x31, 0x2f, 0x4d, 0x61, 0x74, 0x4d, 0x75,
        0x6c, 0x5f, 0x62, 0x69, 0x61, 0x73, 0x00, 0x00, 0x01, 0x00, 0x00, 0x00,
        0x64, 0x00, 0x00, 0x00, 0xbc, 0xf7, 0xff, 0xff, 0x90, 0x01, 0x00, 0x00,
        0x84, 0x63, 0xa7, 0xbe, 0x1a, 0xd5, 0x86, 0x3c, 0xa9, 0xd8, 0x83, 0x3f,
        0x6c, 0xfa, 0xe4, 0x3f, 0xd6, 0x96, 0x9c, 0x3f, 0xa9, 0xa6, 0xaa, 0xbb,
        0x2c, 0xdb, 0x24, 0xb9, 0x34, 0x6b, 0x12, 0xc0, 0x1d, 0x51, 0x60, 0xbf,
        0xb8, 0x04, 0x14, 0x3f, 0x26, 0xb3, 0xd0, 0x3f, 0xe8, 0xc6, 0xa0, 0x3f,
        0xc2, 0x61, 0x3e, 0x3f, 0x01, 0x06, 0xeb, 0x3f, 0x46, 0xae, 0x12, 0x40,
        0x43, 0xe8, 0xb2, 0xbc, 0xd6, 0xd8, 0x72, 0x3f, 0x84, 0xb8, 0x53, 0x40,
        0x73, 0x43, 0x30, 0x3f, 0x8b, 0xe2, 0x59, 0x3f, 0x20, 0x2c, 0x35, 0x3f,
        0x0b, 0x2f, 0x9c, 0x3e, 0x6c, 0xf5, 0x2b, 0x40, 0x90, 0x62, 0xa9, 0xbf,
        0x96, 0x0f, 0x2e, 0x3f, 0x7e, 0x5f, 0xd2, 0x3e, 0xfb, 0x3a, 0xf8, 0x3f,
        0x6d, 0x6e, 0x95, 0x3f, 0x75, 0x0b, 0x12, 0x3e, 0x94, 0x1a, 0xca, 0x3f,
        0x2e, 0x7f, 0xde, 0x3f, 0xde, 0xad, 0x14, 0xc0, 0xae, 0xb0, 0x78, 0xbf,
        0x0c, 0xb1, 0x01, 0x40, 0x1b, 0x97, 0x2f, 0x40, 0xaf, 0x21, 0xd1, 0x3f,
        0x2f, 0xae, 0x91, 0xbf, 0xeb, 0xa4, 0x88, 0x40, 0x1f, 0x2b, 0xae, 0x3f,
        0x9c, 0xb3, 0x80, 0x40, 0xba, 0x29, 0xa3, 0xbe, 0x75, 0x1f, 0x46, 0x3e,
        0x4c, 0x8c, 0xa4, 0x3f, 0x99, 0x82, 0x57, 0xc0, 0xf4, 0xd2, 0x21, 0xbf,
        0x59, 0x53, 0xe1, 0xc0, 0x28, 0x6f, 0x05, 0x3b, 0x4a, 0x96, 0x9e, 0xc0,
        0xe4, 0x2c, 0xb1, 0xbd, 0x43, 0x87, 0xdf, 0xba, 0xe1, 0xbe, 0x0a, 0x40,
        0xff, 0x23, 0xe0, 0xc0, 0x6b, 0x71, 0x15, 0xc0, 0x99, 0xee, 0xa1, 0x3f,
        0xbb, 0x45, 0x05, 0xbf, 0xbf, 0xc6, 0x93, 0x3a, 0x43, 0x93, 0x78, 0x40,
        0x8a, 0x92, 0x5b, 0xc0, 0x24, 0xc6, 0x81, 0xc0, 0xcf, 0x4c, 0xa6, 0x3f,
        0xb8, 0x7c, 0x30, 0xc0, 0xd2, 0x22, 0x8f, 0x3f, 0x2f, 0x2e, 0xda, 0xbf,
        0x4b, 0xea, 0xf6, 0xbe, 0x4e, 0x91, 0x0d, 0xc0, 0x8e, 0xeb, 0x6c, 0x3e,
        0xbf, 0xcb, 0x61, 0xc0, 0x38, 0xdd, 0x50, 0xbf, 0x55, 0x83, 0x60, 0xbf,
        0xd7, 0xef, 0xde, 0x40, 0x62, 0x7f, 0x7e, 0xbf, 0x7a, 0xd3, 0x87, 0xc0,
        0x9c, 0x8d, 0xc4, 0xbf, 0x79, 0x48, 0x8d, 0xbf, 0xc3, 0x26, 0x3d, 0xbf,
        0x13, 0x02, 0xae, 0xbc, 0x9c, 0x83, 0x11, 0xbf, 0x6a, 0x01, 0x45, 0xbf,
        0x97, 0xa8, 0xde, 0xba, 0x35, 0x93, 0xf6, 0xbf, 0x4b, 0x4c, 0x7f, 0x3f,
        0x99, 0xaa, 0x61, 0xc0, 0xec, 0xd9, 0xdc, 0x3c, 0x53, 0x92, 0x0f, 0xbe,
        0x4c, 0x7e, 0xa3, 0x3f, 0x5e, 0xf9, 0x11, 0xc0, 0x31, 0x7b, 0xe7, 0xbf,
        0xae, 0xdc, 0x8e, 0xbf, 0x9b, 0xf6, 0x47, 0x3e, 0x74, 0x6c, 0x28, 0x3f,
        0x81, 0x2e, 0x90, 0x3f, 0xcf, 0x87, 0xb9, 0xbe, 0x9f, 0x29, 0x68, 0xbf,
        0xf4, 0x35, 0x95, 0xbf, 0x8a, 0x5f, 0x56, 0xbf, 0xe0, 0x03, 0xdd, 0x40,
        0x6f, 0x28, 0xd2, 0x3a, 0x9d, 0xb5, 0x50, 0x3f, 0xcd, 0x1c, 0x9f, 0xbf,
        0xc6, 0x70, 0xa0, 0x3d, 0xd6, 0xfa, 0xff, 0xff, 0x60, 0x00, 0x00, 0x00,
        0x02, 0x00, 0x00, 0x00, 0x08, 0x00, 0x00, 0x00, 0x60, 0x00, 0x00, 0x00,
        0x4a, 0x00, 0x00, 0x00, 0x53, 0x74, 0x61, 0x74, 0x65, 0x66, 0x75, 0x6c,
        0x50, 0x61, 0x72, 0x74, 0x69, 0x74, 0x69, 0x6f, 0x6e, 0x65, 0x64, 0x43,
        0x61, 0x6c, 0x6c, 0x2f, 0x73, 0x65, 0x71, 0x75, 0x65, 0x6e, 0x74, 0x69,
        0x61, 0x6c, 0x2f, 0x64, 0x65, 0x6e, 0x73, 0x65, 0x5f, 0x32, 0x2f, 0x4d,
        0x61, 0x74, 0x4d, 0x75, 0x6c, 0x2f, 0x52, 0x65, 0x61, 0x64, 0x56, 0x61,
        0x72, 0x69, 0x61, 0x62, 0x6c, 0x65, 0x4f, 0x70, 0x2f, 0x74, 0x72, 0x61,
        0x6e, 0x73, 0x70, 0x6f, 0x73, 0x65, 0x00, 0x00, 0x02, 0x00, 0x00, 0x00,
        0x03, 0x00, 0x00, 0x00, 0x64, 0x00, 0x00, 0x00, 0xc4, 0xf9, 0xff, 0xff,
        0xb0, 0x04, 0x00, 0x00, 0x2a, 0xff, 0xd3, 0x3d, 0x56, 0x47, 0x5d, 0x3c,
        0x2e, 0x30, 0x87, 0xbf, 0xc9, 0x32, 0x4b, 0xbb, 0x56, 0xa5, 0x65, 0x3f,
        0x3d, 0x60, 0x1b, 0xba, 0xd0, 0x77, 0xbf, 0xb6, 0xd3, 0x00, 0x14, 0xbb,
        0xd0, 0xbe, 0xe5, 0x3b, 0xa9, 0xc1, 0x92, 0xbd, 0x66, 0x98, 0x13, 0x3e,
        0xb8, 0x26, 0x1c, 0xbd, 0xfe, 0xff, 0x1e, 0xbe, 0x5e, 0xe1, 0x41, 0x3c,
        0xba, 0xc3, 0xea, 0x3d, 0x09, 0xa8, 0xa6, 0xbc, 0x48, 0xad, 0x1b, 0x3b,
        0x6e, 0x8e, 0x22, 0xbe, 0x3d, 0x79, 0x24, 0x3e, 0xf6, 0x4f, 0x6c, 0xbb,
        0x8b, 0xa7, 0x3a, 0x3a, 0x65, 0x5d, 0x65, 0x3d, 0x08, 0xa0, 0x84, 0x3a,
        0xe0, 0xf8, 0x9a, 0x3c, 0xa6, 0x71, 0xc9, 0x3b, 0x7b, 0xd2, 0x80, 0xbd,
        0xdb, 0xd0, 0x8b, 0x3c, 0x3e, 0x40, 0x8c, 0x3e, 0x82, 0xac, 0xb2, 0x3e,
        0x5e, 0x30, 0x65, 0xbc, 0xfd, 0x5d, 0x1f, 0x3b, 0xbe, 0xc1, 0x9f, 0x3b,
        0x64, 0x5c, 0x87, 0xbc, 0xf0, 0x8a, 0x64, 0xbd, 0x8a, 0x7c, 0xca, 0x3b,
        0xb5, 0x93, 0xa5, 0xbb, 0xa7, 0xf0, 0xc9, 0x3b, 0x46, 0xef, 0xd5, 0x3b,
        0xe6, 0x22, 0x16, 0xbe, 0xf3, 0xa2, 0xe3, 0x3c, 0x21, 0xb4, 0x53, 0x3b,
        0xbb, 0xb2, 0x68, 0x3c, 0x33, 0x69, 0x6a, 0xbc, 0x98, 0xb0, 0xce, 0xbc,
        0x5b, 0x03, 0x33, 0x3c, 0x7d, 0x26, 0x9f, 0xbe, 0x00, 0x07, 0xf3, 0x3a,
        0x4f, 0x26, 0xea, 0xbd, 0x0e, 0x2e, 0x69, 0x3f, 0x42, 0x10, 0xbe, 0xb9,
        0xc5, 0xfb, 0xcb, 0xbc, 0xd4, 0xc2, 0xfa, 0x3d, 0x23, 0x92, 0xed, 0x3c,
        0x77, 0xce, 0xd9, 0xbe, 0x6d, 0x1c, 0x44, 0x3d, 0xeb, 0x32, 0x13, 0x3a,
        0x1b, 0xf0, 0x2e, 0xbc, 0x46, 0xc6, 0x59, 0x3d, 0xdb, 0x13, 0x28, 0xbd,
        0xdc, 0x33, 0x65, 0xbc, 0x3c, 0xff, 0x53, 0x3c, 0xb7, 0x07, 0x40, 0x3e,
        0x0b, 0x31, 0x33, 0xbc, 0x88, 0x0f, 0xd6, 0x3c, 0x11, 0x6d, 0x2f, 0x3e,
        0x55, 0xfe, 0x0a, 0xbd, 0x4d, 0x48, 0x73, 0x3c, 0x83, 0x02, 0x14, 0xbd,
        0x6a, 0x0a, 0x16, 0x3b, 0x29, 0x43, 0x06, 0xbe, 0x1f, 0xf8, 0x6b, 0x3c,
        0x1f, 0xed, 0xbc, 0xbc, 0xe7, 0x5c, 0x19, 0x3e, 0x45, 0x11, 0xf5, 0x3c,
        0xbb, 0x40, 0xea, 0x3d, 0x2c, 0xfd, 0xf6, 0xbd, 0x91, 0x31, 0x3d, 0xbe,
        0x52, 0x80, 0xc8, 0x3c, 0xa9, 0xe9, 0x05, 0xb7, 0xff, 0xd1, 0xb3, 0x3c,
        0x68, 0xea, 0x32, 0x3e, 0x2e, 0x11, 0xed, 0xbd, 0x15, 0x68, 0xc2, 0x3c,
        0xcf, 0x73, 0x42, 0xbc, 0x8f, 0xfb, 0xd1, 0x3c, 0xad, 0x03, 0x4a, 0xbe,
        0xb8, 0x77, 0x6b, 0xbb, 0x05, 0xc3, 0x18, 0x3e, 0xe7, 0xe5, 0x67, 0x3f,
        0xf8, 0x66, 0x98, 0xbd, 0x77, 0x26, 0x6e, 0xbd, 0xa0, 0x44, 0x18, 0x3d,
        0x44, 0x34, 0x17, 0x3c, 0xca, 0x66, 0x93, 0xbe, 0x91, 0x78, 0xd7, 0x3a,
        0xad, 0x9b, 0x96, 0x3c, 0x5b, 0x19, 0x07, 0x3a, 0x2b, 0xa4, 0x26, 0xbd,
        0xff, 0x5e, 0x1b, 0xbe, 0x73, 0x16, 0x26, 0xbe, 0xbb, 0xeb, 0x46, 0xbb,
        0x08, 0x92, 0x54, 0x3e, 0x86, 0x85, 0xcc, 0xbb, 0x0e, 0x9d, 0x5a, 0x3e,
        0x7f, 0x61, 0x63, 0x3c, 0x25, 0xa7, 0xba, 0xb8, 0x5d, 0xc2, 0x95, 0x36,
        0xd8, 0x07, 0xa5, 0xbd, 0x90, 0xa9, 0x1e, 0x3e, 0xc7, 0xba, 0x81, 0xba,
        0x28, 0x1c, 0x54, 0xbc, 0x44, 0x86, 0x24, 0xbe, 0xc5, 0xce, 0x68, 0xba,
        0xed, 0x52, 0xe6, 0x3a, 0xa3, 0x9c, 0xfb, 0x3d, 0xa4, 0x1e, 0x49, 0xbd,
        0xaf, 0x34, 0xd4, 0xbc, 0x07, 0xea, 0x4b, 0x3f, 0x7d, 0x21, 0x0a, 0x3c,
        0x79, 0x84, 0x98, 0x3d, 0x79, 0xbc, 0x3a, 0xbd, 0x54, 0x5f, 0xd9, 0xba,
        0x3f, 0x20, 0xb3, 0x3d, 0xb4, 0x3d, 0xaf, 0xbd, 0xea, 0x47, 0xc2, 0x3c,
        0xa4, 0xcb, 0xd4, 0xbe, 0x2c, 0x0e, 0x7b, 0x3d, 0x3a, 0xb5, 0xe7, 0xbc,
        0xc1, 0xd0, 0xba, 0xbc, 0x1b, 0x74, 0x08, 0xbe, 0x51, 0x30, 0x39, 0x3e,
        0x98, 0xcc, 0xe6, 0xbd, 0xfd, 0x02, 0x7d, 0xbd, 0xf1, 0xe8, 0xb3, 0x3d,
        0x01, 0x47, 0x96, 0x3d, 0x65, 0x87, 0x9c, 0x3b, 0x7b, 0x34, 0x11, 0xbd,
        0x0f, 0x74, 0x19, 0x3f, 0xb0, 0x26, 0x1a, 0x3b, 0xec, 0x0d, 0x34, 0x3f,
        0xa3, 0x0f, 0x35, 0xbc, 0x89, 0x20, 0x49, 0x3e, 0x38, 0x0a, 0xa4, 0x3d,
        0x29, 0xfc, 0xf0, 0xbc, 0x72, 0xc7, 0x2f, 0x3e, 0xea, 0x15, 0x78, 0x3f,
        0x5a, 0x26, 0xe1, 0x39, 0x30, 0x05, 0x24, 0x3f, 0x8a, 0x65, 0x3f, 0xbc,
        0x34, 0xae, 0x74, 0x39, 0xab, 0x49, 0xdf, 0x3d, 0x3a, 0x14, 0x5c, 0x3f,
        0x4c, 0xff, 0xbb, 0xbd, 0x0f, 0x23, 0xeb, 0xbc, 0x9c, 0x48, 0x83, 0xba,
        0x5c, 0x48, 0x86, 0x39, 0xdd, 0x18, 0x02, 0x3f, 0xbc, 0x47, 0xcc, 0xbe,
        0x0b, 0x78, 0x85, 0xbf, 0xff, 0x2a, 0xa7, 0x3d, 0xb3, 0xf6, 0xdb, 0xbd,
        0x24, 0xc9, 0xa1, 0xbb, 0xa5, 0xd6, 0xe5, 0xbd, 0xd2, 0xc8, 0x71, 0xbd,
        0x23, 0xb6, 0xd8, 0xbd, 0x20, 0xef, 0x1a, 0xb7, 0xff, 0xe3, 0xb9, 0xbe,
        0xb3, 0x7a, 0x16, 0xbc, 0x30, 0x4c, 0x9f, 0xbd, 0x9d, 0xa7, 0xb6, 0xbf,
        0x8c, 0xde, 0xe3, 0x3d, 0x67, 0x52, 0x60, 0xbf, 0xc5, 0x30, 0x9f, 0xbc,
        0xf9, 0xaa, 0xa2, 0xbe, 0x2f, 0x62, 0x0f, 0x3d, 0x9b, 0xa6, 0x22, 0xbc,
        0x6f, 0xf3, 0xff, 0xbb, 0x0b, 0x61, 0x13, 0x3d, 0x2b, 0x55, 0x04, 0x38,
        0x65, 0x5f, 0x38, 0xbe, 0x72, 0xb5, 0x2d, 0x3c, 0xf6, 0xae, 0xa3, 0xbe,
        0x3d, 0x9f, 0x83, 0xbd, 0xc2, 0x5f, 0x59, 0x3c, 0xb0, 0x86, 0xff, 0x3d,
        0x03, 0x58, 0x21, 0xbe, 0x29, 0x12, 0x8c, 0xbd, 0xec, 0x2a, 0xc3, 0xbb,
        0x54, 0x66, 0x97, 0x3c, 0xbc, 0x38, 0x94, 0xbb, 0xae, 0xb3, 0xe7, 0xbd,
        0xd8, 0x1b, 0x9f, 0x3c, 0x4c, 0x8c, 0x75, 0x3e, 0x03, 0x33, 0x53, 0x3e,
        0x17, 0xca, 0x57, 0x3c, 0x76, 0xa7, 0x90, 0xbf, 0x00, 0x77, 0x26, 0x38,
        0x3c, 0xb2, 0x45, 0x3c, 0x70, 0x15, 0x12, 0xbe, 0x2a, 0xf3, 0xe6, 0x3b,
        0x85, 0xee, 0xa1, 0xbb, 0xbb, 0x74, 0x22, 0xbe, 0x9f, 0xf5, 0x48, 0x3c,
        0x8a, 0x09, 0xe3, 0x3d, 0x3a, 0x2c, 0x0d, 0x3a, 0x53, 0x9d, 0x29, 0xb9,
        0x64, 0x13, 0xd4, 0xb5, 0xb4, 0xb8, 0x83, 0xbd, 0x03, 0xf5, 0x59, 0xbd,
        0xd3, 0x1a, 0x28, 0x3a, 0xe2, 0x2e, 0x1d, 0xbd, 0x19, 0xd8, 0xe9, 0x3d,
        0x2d, 0x31, 0x7a, 0xba, 0x00, 0x9f, 0x4a, 0x3e, 0xa6, 0x1e, 0x40, 0x3d,
        0xa4, 0x5c, 0x1e, 0x3d, 0x8e, 0x20, 0x1f, 0xbd, 0x36, 0x2d, 0x9e, 0x3f,
        0xa3, 0x89, 0x47, 0xba, 0x17, 0xf8, 0x5c, 0x3d, 0x87, 0x4c, 0x4c, 0x3d,
        0xbc, 0x0c, 0xc7, 0x3a, 0xf8, 0x9f, 0xc5, 0xba, 0x27, 0xdc, 0x77, 0xbd,
        0x3a, 0xba, 0x10, 0xbd, 0x58, 0x34, 0x10, 0x3d, 0x77, 0xde, 0x99, 0x3d,
        0xe6, 0x8c, 0x07, 0x3c, 0x62, 0x48, 0xa3, 0xbc, 0xf1, 0x12, 0xc7, 0x3d,
        0xa3, 0xdb, 0x83, 0x3e, 0xfb, 0xc5, 0xac, 0xbd, 0xd7, 0x76, 0x6b, 0xbd,
        0xfc, 0x01, 0x13, 0xbd, 0x3b, 0x31, 0xde, 0x3d, 0x2a, 0xc3, 0x78, 0x3d,
        0x25, 0x87, 0x8d, 0x3d, 0xa6, 0x6a, 0x8e, 0x3f, 0x0b, 0x08, 0x1c, 0xba,
        0x40, 0xcc, 0x78, 0x3f, 0x59, 0x2d, 0x12, 0x3c, 0xe1, 0x43, 0x47, 0xbb,
        0x3a, 0x41, 0x08, 0xbd, 0x71, 0x7d, 0x89, 0xbe, 0x7e, 0x6c, 0xe1, 0xbb,
        0xaf, 0xb6, 0xbe, 0x3f, 0xea, 0x72, 0x29, 0xb9, 0xbc, 0x1f, 0x53, 0x3f,
        0xbe, 0x91, 0x91, 0x3b, 0x60, 0x52, 0xfd, 0xb7, 0x5d, 0x67, 0xd0, 0x3d,
        0x7c, 0x59, 0xc6, 0x3f, 0x5c, 0x04, 0x4d, 0x3d, 0x16, 0xfa, 0x67, 0xba,
        0xe5, 0x31, 0xaa, 0xba, 0xe9, 0x94, 0x5e, 0xba, 0xf3, 0x1e, 0x4b, 0x3f,
        0xb7, 0x62, 0x4a, 0xbf, 0x48, 0x99, 0xda, 0xbf, 0x2c, 0x86, 0x63, 0xbd,
        0x4b, 0xa2, 0xcd, 0xbe, 0x87, 0xe9, 0x1d, 0xbc, 0xf1, 0xfd, 0x86, 0xbd,
        0xd6, 0x18, 0x32, 0x3d, 0x60, 0xe1, 0xbd, 0xbd, 0xd6, 0x51, 0x58, 0x3a,
        0x82, 0x2d, 0x07, 0xbf, 0xe9, 0x6a, 0x99, 0xbb, 0x2a, 0x6a, 0x49, 0xbd,
        0x88, 0xc9, 0xcb, 0xbf, 0x70, 0xbc, 0x17, 0xbe, 0x13, 0xd1, 0xae, 0xbf,
        0xf6, 0x6c, 0x9f, 0xbc, 0xcf, 0x56, 0x03, 0xbb, 0xf3, 0xcb, 0x7f, 0x3c,
        0x25, 0xec, 0xa0, 0x3c, 0x03, 0xcd, 0xc4, 0xbb, 0xad, 0x03, 0xa7, 0x3d,
        0x1b, 0xee, 0x76, 0x36, 0x62, 0x90, 0x00, 0xbd, 0xbe, 0x87, 0xb1, 0x3c,
        0x6d, 0xdf, 0xa3, 0xbe, 0x2c, 0xe6, 0x03, 0x3d, 0xc0, 0x5e, 0xcc, 0x3b,
        0x3f, 0x2c, 0x99, 0xbc, 0x35, 0x1c, 0x17, 0xbe, 0xab, 0xc7, 0x56, 0xbd,
        0x95, 0xb7, 0xee, 0x3b, 0x7a, 0x2a, 0x1d, 0x3c, 0xe5, 0x05, 0x68, 0xbb,
        0xc8, 0x98, 0xdb, 0xbc, 0xe3, 0xaa, 0xc8, 0x3a, 0x75, 0x6b, 0xfb, 0x3c,
        0x01, 0x54, 0x88, 0x3b, 0x5f, 0x07, 0x00, 0xbd, 0xf3, 0x10, 0xa5, 0xbf,
        0x52, 0xde, 0xbd, 0xb9, 0xd9, 0xe0, 0x29, 0x3c, 0x1b, 0xb7, 0xcc, 0xbd,
        0x36, 0x75, 0x33, 0x3b, 0x00, 0x00, 0x0e, 0x00, 0x14, 0x00, 0x04, 0x00,
        0x00, 0x00, 0x08, 0x00, 0x0c, 0x00, 0x10, 0x00, 0x0e, 0x00, 0x00, 0x00,
        0x4c, 0x00, 0x00, 0x00, 0x01, 0x00, 0x00, 0x00, 0x08, 0x00, 0x00, 0x00,
        0x48, 0x00, 0x00, 0x00, 0x36, 0x00, 0x00, 0x00, 0x53, 0x74, 0x61, 0x74,
        0x65, 0x66, 0x75, 0x6c, 0x50, 0x61, 0x72, 0x74, 0x69, 0x74, 0x69, 0x6f,
        0x6e, 0x65, 0x64, 0x43, 0x61, 0x6c, 0x6c, 0x2f, 0x73, 0x65, 0x71, 0x75,
        0x65, 0x6e, 0x74, 0x69, 0x61, 0x6c, 0x2f, 0x64, 0x65, 0x6e, 0x73, 0x65,
        0x5f, 0x32, 0x2f, 0x4d, 0x61, 0x74, 0x4d, 0x75, 0x6c, 0x5f, 0x62, 0x69,
        0x61, 0x73, 0x00, 0x00, 0x01, 0x00, 0x00, 0x00, 0x03, 0x00, 0x00, 0x00,
        0xe4, 0xfe, 0xff, 0xff, 0x0c, 0x00, 0x00, 0x00, 0xec, 0x1f, 0xcb, 0x3e,
        0xf5, 0x4c, 0xb9, 0xbf, 0x5a, 0x00, 0xbe, 0xbf, 0x04, 0x00, 0x00, 0x00,
        0xd0, 0x00, 0x00, 0x00, 0x80, 0x00, 0x00, 0x00, 0x54, 0x00, 0x00, 0x00,
        0x04, 0x00, 0x00, 0x00, 0x54, 0xff, 0xff, 0xff, 0x00, 0x00, 0x00, 0x08,
        0x1c, 0x00, 0x00, 0x00, 0x10, 0x00, 0x00, 0x00, 0x24, 0x00, 0x00, 0x00,
        0x04, 0x00, 0x00, 0x00, 0x00, 0x00, 0x00, 0x00, 0x01, 0x00, 0x00, 0x00,
        0x00, 0x00, 0x00, 0x00, 0x03, 0x00, 0x00, 0x00, 0x07, 0x00, 0x00, 0x00,
        0x08, 0x00, 0x00, 0x00, 0x09, 0x00, 0x00, 0x00, 0x40, 0xff, 0xff, 0xff,
        0x14, 0x00, 0x14, 0x00, 0x04, 0x00, 0x08, 0x00, 0x0c, 0x00, 0x00, 0x00,
        0x00, 0x00, 0x00, 0x00, 0x00, 0x00, 0x10, 0x00, 0x14, 0x00, 0x00, 0x00,
        0x01, 0x00, 0x00, 0x00, 0x18, 0x00, 0x00, 0x00, 0x0c, 0x00, 0x00, 0x00,
        0x04, 0x00, 0x00, 0x00, 0x00, 0x00, 0x00, 0x00, 0x01, 0x00, 0x00, 0x00,
        0x07, 0x00, 0x00, 0x00, 0x01, 0x00, 0x00, 0x00, 0x04, 0x00, 0x00, 0x00,
        0xc8, 0xff, 0xff, 0xff, 0x00, 0x00, 0x00, 0x08, 0x1c, 0x00, 0x00, 0x00,
        0x10, 0x00, 0x00, 0x00, 0x24, 0x00, 0x00, 0x00, 0x04, 0x00, 0x00, 0x00,
        0x00, 0x00, 0x00, 0x00, 0x01, 0x00, 0x00, 0x00, 0x04, 0x00, 0x00, 0x00,
        0x03, 0x00, 0x00, 0x00, 0x01, 0x00, 0x00, 0x00, 0x05, 0x00, 0x00, 0x00,
        0x06, 0x00, 0x00, 0x00, 0xb4, 0xff, 0xff, 0xff, 0x14, 0x00, 0x18, 0x00,
        0x00, 0x00, 0x08, 0x00, 0x0c, 0x00, 0x07, 0x00, 0x10, 0x00, 0x00, 0x00,
        0x00, 0x00, 0x14, 0x00, 0x14, 0x00, 0x00, 0x00, 0x00, 0x00, 0x00, 0x08,
        0x1c, 0x00, 0x00, 0x00, 0x10, 0x00, 0x00, 0x00, 0x28, 0x00, 0x00, 0x00,
        0x04, 0x00, 0x00, 0x00, 0x00, 0x00, 0x00, 0x00, 0x01, 0x00, 0x00, 0x00,
        0x01, 0x00, 0x00, 0x00, 0x03, 0x00, 0x00, 0x00, 0x0a, 0x00, 0x00, 0x00,
        0x02, 0x00, 0x00, 0x00, 0x03, 0x00, 0x00, 0x00, 0x04, 0x00, 0x04, 0x00,
        0x04, 0x00, 0x00, 0x00, 0x02, 0x00, 0x00, 0x00, 0x08, 0x00, 0x00, 0x00,
        0x0c, 0x00, 0x00, 0x00, 0xe6, 0xff, 0xff, 0xff, 0x00, 0x00, 0x00, 0x09,
        0xfa, 0xff, 0xff, 0xff, 0x00, 0x1c, 0x06, 0x00, 0x06, 0x00, 0x05, 0x00,
        0x06, 0x00, 0x00, 0x00, 0x00, 0x09, 0x06, 0x00, 0x08, 0x00, 0x07, 0x00,
        0x06, 0x00, 0x00, 0x00, 0x00, 0x00, 0x00, 0x09
};
const int g_model_len = 4640;